00000100
11111011
00000001
00000100
11111111
00000110
00000100
00000011
00000010
00000101
00000001
11111101
11111011
00000100
11111100
00000011
00000010
00000010
00000111
00000010
11111000
11110111
00000110
11111101
11111010
11111101
11111001
00000011
11111101
00000010
11111001
11111110
11111011
00000100
00000101
11111011
11111101
00000100
00000111
00000010
11111101
11111100
00000111
00000000
11111110
00000001
11111010
11111011
00000100
11111001
00000110
00000100
00000011
00000010
11111110
00000010
11111010
11111101
00000010
11111101
11111101
00000001
11111001
00000010
11110111
11111010
00000101
00000101
00000101
00000001
11111011
00000100
00000001
00000001
00000010
00000000
00001000
11111111
00000111
00001010
00000111
11111001
11111100
00000000
00000011
00000001
11111000
00000001
00000010
11110110
00000010
11111111
11111110
11111110
11111101
00000011
