00000111
00001110
00010100
11111111
00000101
11111000
00010110
11101011
00010001
11111111
11111110
11110100
00000110
00000110
11110100
11110011
11110010
11110111
11110101
00010111
00000110
11111100
11111100
00000001
11111111
00000010
00000100
00000000
00000001
00000011
11111100
00000011
11111000
11111100
00000011
00000110
11111000
11111001
11111101
11111111
11111100
00000001
00000000
00001110
00000001
11111111
11111111
00000101
00000101
11111010
11111111
00000010
00000000
00000111
00000010
00000010
11111101
00000011
00000001
00000000
11111011
11111110
11111110
00000011
00000000
00001000
00000101
00000010
11111110
11111101
11111010
00000000
00000000
00000000
11111111
00000000
00000110
00000111
11111010
00000001
00000011
00000010
00000000
00000111
11111110
00000111
11111001
11111000
11111011
11111011
00000100
00001010
00000000
11111000
00001000
00000111
11111101
11111011
11110110
11111111
11111111
00000011
00000010
00000000
11111001
00000010
11111111
11111111
11111000
00000111
00000001
11111010
00000000
11111011
11111011
00000111
00000100
00000101
11111001
00000000
11111110
00000111
11111110
00000100
00001001
00001000
00000110
00000110
00000111
11111010
00000000
11111011
11111010
00000000
11111110
11111110
00001010
11111100
00000011
00000000
11111110
11111101
11111010
11111111
11111001
00000000
11111001
11111011
11111100
11111011
00000100
00000101
11111100
11111001
11111011
00000000
00000101
00000010
11111100
00000000
00000000
00000000
00001001
11111011
11111100
00000001
00000000
11111111
00000011
11111111
00000110
11111111
00000010
11111011
00000000
11111000
11111111
00000000
00000000
11111011
00000100
11111111
11111010
00000011
11111111
00000000
11111100
11111111
00000010
00000111
11111001
11111010
00000000
00000011
11111100
11111010
11111011
11111111
11110110
11111100
11111100
11111111
00001000
00000101
00000011
11111011
00000011
11111000
00000011
00000111
00000100
11111110
00000000
11111000
00000001
11111100
