00001010
00001110
00010000
11111011
00000111
11110111
00010011
11110011
00001110
00000101
11111101
11110100
00001110
00000101
00000011
11110111
11110001
00000000
11110001
00010111
00001000
00000000
11111111
00001001
00000010
00000011
00000110
00010011
00000011
00000011
11110100
11011011
00011110
11111111
00001100
11111110
10100011
11110001
11111100
11110110
00000011
00000010
00000000
11100101
11001011
00000000
00000000
11011001
00001010
11111011
11111011
00000001
00000010
00001101
00000000
00001010
11111000
11111100
00000001
00000010
00000000
11111101
00000011
00000100
11111111
00010010
00000010
00000100
11111111
00000000
11111100
00000000
00000001
11101010
00010010
00000100
00000101
11110101
00000111
00000001
00001101
00000011
11000011
11111100
00000011
00000101
11110111
11011010
11111010
11010101
11101111
00000100
00000011
11110010
00001010
00010000
00000001
11111011
11110010
11111110
00000000
00001011
00000000
00000100
11110100
00000000
11111111
00000000
11111011
00000111
00000100
11111100
11111111
00000001
11111001
00000111
00000011
00001001
11111011
00000010
11010100
00001100
00000000
00001111
00001010
00100001
11110000
11010101
00000101
11110111
11111101
11110111
11010100
11110011
11111001
11111111
10100111
00000011
11111111
11100100
11111111
11111110
11111100
00001110
11110101
00000000
11110111
11111010
11111100
11111110
00000100
00000001
11111001
11110111
11111100
00000010
00000010
00000011
11111011
00000001
00000000
11111010
00001000
11111011
11111010
00000000
00000010
00000001
11100010
11111111
00000100
11111111
00000001
00000001
00000000
11111010
11111111
00000010
00000000
11111000
00000100
11100111
11011101
10110101
11111110
00010101
11111011
11101001
11000100
00001000
11110111
11111001
11111101
00000011
11111011
11111010
11111010
11111101
11110111
11111100
11111101
11111110
00001000
00000110
00000001
11111011
00000010
11111010
00000011
00000011
00000101
11111110
00000000
11110111
00000000
11111001
11111101
00000011
11111101
00000100
00000000
00000001
00000000
00000001
00000000
11111110
00000101
11111110
00000101
00000000
11111111
00001000
00000000
00000100
11111011
00000001
00000000
11111000
00000101
11111011
00000001
11111101
00000011
00000100
11110111
11111100
11111010
00000000
11111011
11111111
00000000
00000000
11111010
00000000
11111111
00000001
11111111
11111110
11111100
00000111
00000000
11111011
11110110
00000100
00001001
00000011
00000110
11111111
11111000
00000100
11111101
11110101
00000100
00000011
11111001
00001000
11111001
00000010
11111110
00000101
11111111
00000001
00000101
00000000
00001000
00000000
11111001
11111101
00000001
00000010
11111111
00000010
00000000
11111110
00000101
11111100
11111100
00000000
11110110
11111010
11111111
00000011
11111111
00000000
00000001
00000000
11111000
11111100
00000011
00000000
00000001
11111010
00000100
11111011
00000001
00000100
11111111
00000110
00000100
00000011
00000010
00000101
00000001
11111101
11111011
00000100
11111100
00000011
00000010
00000010
00000111
00000010
11111000
11110111
00000110
11111101
11111010
11111101
11111001
00000011
11111101
00000010
11111001
11111110
11111011
00000100
00000101
11111011
11111101
00000100
00000111
00000010
11111101
11111100
00000111
00000000
11111110
00000001
11111010
11111011
00000100
11111001
00000110
00000100
00000011
00000010
11111110
00000010
11111010
11111101
00000010
11111101
11111101
00000001
11111001
00000010
11110111
11111010
00000101
00000101
00000101
00000001
11111011
00000100
00000001
00000001
00000010
00000000
00001000
11111111
00000111
00001010
00000111
11111001
11111100
00000000
00000011
00000001
11111000
00000001
00000010
11110110
00000010
11111111
11111110
11111110
11111101
00000011
00000000
11111011
11111100

