11111101
00000011
11111101
00000100
00000000
00000001
00000000
00000001
00000000
11111110
00000101
11111110
00000101
00000000
11111111
00001000
00000000
00000100
11111011
00000001
00000000
11111000
00000101
11111011
00000001
11111101
00000011
00000100
11110111
11111100
11111010
00000000
11111011
11111111
00000000
00000000
11111010
00000000
11111111
00000001
11111111
11111110
11111100
00000111
00000000
11111011
11110110
00000100
00001001
00000011
00000110
11111111
11111000
00000100
11111101
11110101
00000100
00000011
11111001
00001000
11111001
00000010
11111110
00000101
11111111
00000001
00000101
00000000
00001000
00000000
11111001
11111101
00000001
00000010
11111111
00000010
00000000
11111110
00000101
11111100
11111100
00000000
11110110
11111010
11111111
00000011
11111111
00000000
00000001
00000000
11111000
11111100
00000011
00000000
00000001
11111010
